TRT-8201-EntropyCalibration2
images: 3bf80000
122: 3d7117d4
123: 3c010a14
124: 3d032982
125: 3e798c7c
126: 3c010a14
127: 3de8e984
128: 3d43299f
129: 3c03d791
130: 3d2a0886
131: 3dd06319
132: 3c02d541
133: 3cf5c713
134: 3d8271b0
135: 3c25bb74
136: 3d9299dc
137: 3dbbe8e0
138: 3e06304c
139: 3c00b973
140: 3dbbe8e0
141: 3dbbe8e0
142: 3d63a5b1
143: 3c04f02c
144: 3cbe8844
145: 3d0f58f0
146: 3c053a0e
147: 3ce70211
148: 3cc311a3
149: 3be8c848
150: 3c7634c2
151: 3ce8d85a
152: 3bfb8575
153: 3ce311a7
154: 3d17c6a3
155: 3bfe3494
156: 3ce742ce
157: 3d086f84
158: 3cfbc80e
159: 3bf415b4
160: 3c8700ae
161: 3d4c8ed1
162: 3c01cc36
163: 3d22e9cb
164: 3d3ecb7c
165: 3d019b9a
166: 3c02af10
167: 3d3ecb7c
168: 3d3ecb7c
169: 3d1910d6
170: 3c010708
171: 3ce9504f
172: 3d60ffec
173: 3bfe259f
174: 3ca51971
175: 3d10975e
176: 3bd302f9
177: 3bec4cd0
178: 3d362c6c
179: 3c04790e
180: 3cc1737b
181: 3d066af3
182: 3beea2ee
183: 3c1f11c2
184: 3c4baa59
185: 3d1e522c
186: 3c0196a3
187: 3ca44895
188: 3d406365
189: 3c0cec9b
190: 3ca5cf0d
191: 3d2bc86b
192: 3d3a1f18
193: 3c02ca1d
194: 3c80782c
195: 3d6c05fb
196: 3c02e425
197: 3d00f4ef
198: 3d140de4
199: 3d353e3f
200: 3c05dcde
201: 3d140de4
202: 3d140de4
203: 3d5ff2d3
204: 3c08857c
205: 3cc1959c
206: 3d672bcf
207: 3c06b8a5
208: 3cd3f200
209: 3d247253
210: 3be825e6
211: 3bcdb7a6
212: 3d91778c
213: 3c02f1af
214: 3cfefe95
215: 3dbadee1
216: 3c0bdff7
217: 3d0049a0
218: 3d00349d
219: 3d95cbb1
220: 3c022170
221: 3d00349d
222: 3d00349d
223: 3d9e7393
224: 3c008386
225: 3cc23384
226: 3d3a45fe
227: 3c004c6e
228: 3d64ea30
229: 3d64ea30
230: 3d64ea30
231: 3d64ea30
232: 3d64ea30
233: 3d68f9eb
234: 3c00b41b
235: 3c31c10c
236: 3d73a302
237: 3c03d8c6
238: 3d01c732
243: 3cc1959c
244: 3cc1959c
245: 3d52b425
246: 3bfd4303
247: 3c9058d9
248: 3d49aa3a
249: 3bff6d7d
250: 3cb14304
251: 3d51c2b4
252: 3c004ba5
253: 3cc1e651
254: 3d3ad00a
255: 3bfefaef
256: 3cc1e651
257: 3cc1e651
258: 3d79c267
259: 3c00e441
260: 3cb50c7c
261: 3d43a9a6
262: 3c033cc3
263: 3cd27280
268: 3ce9504f
269: 3ce9504f
270: 3d1f1f09
271: 3bf39b52
272: 3c800e9e
273: 3d1b39ba
274: 3c003dc0
275: 3ca60135
276: 3d90e123
277: 3c00c05b
278: 3d0fcc90
279: 3d9e9410
280: 3bfffd2e
281: 3d0fcc90
282: 3d0fcc90
283: 3e43057b
284: 3c010a14
285: 3dca0906
286: 3d666813
287: 3c00e014
288: 3cd27280
289: 3cd27280
290: 3d385e89
291: 3c00838b
292: 3cb26286
293: 3d33fa4d
294: 3bfc401f
295: 3c733368
296: 3d9cda98
297: 3c019308
298: 3d025474
299: 3d5aef8a
300: 3c001ea2
301: 3d025474
302: 3d025474
303: 3e378b0e
304: 3c010a14
305: 3d9c384e
306: 3d85ac46
307: 3c01d347
308: 3d01c732
309: 3d01c732
310: 3d8ba14b
311: 3c0201f9
312: 3cd21ec9
313: 3d81d7b0
314: 3c039b6e
315: 3cb2c328
316: 3dc6394f
317: 3c01973d
318: 3d2691c6
319: 3d8b24eb
320: 3c00db8d
321: 3d2691c6
322: 3d2691c6
323: 3e129be6
324: 3c010a14
325: 3d41aa19
326: 3e1ba18d
349: 3e1ba18d
350: 3e1ba18d
351: 3bdd8801
353: 3bf93920
354: 3bffe10e
355: 40a0665d
(Unnamed Layer* 204) [Shuffle]_output: 3c810a14
357: 3c793920
(Unnamed Layer* 206) [Constant]_output: 3f1e465d
359: 3f2c2a45
(Unnamed Layer* 209) [Shuffle]_output: 3d810a14
361: 40a0665d
(Unnamed Layer* 212) [Shuffle]_output: 3c810a14
363: 3c7fe10e
(Unnamed Layer* 215) [Shuffle]_output: 3c810a14
365: 3cfdd99c
(Unnamed Layer* 217) [Constant]_output: 3e851265
367: 40a0665d
368: 40a0665d
380: 40a08e85
381: 3e0136ee
404: 3e0136ee
405: 3e0136ee
406: 3bbfd177
408: 3c003435
409: 3c04bf6f
410: 40abf81b
(Unnamed Layer* 229) [Shuffle]_output: 3c810a14
412: 3c803435
(Unnamed Layer* 231) [Constant]_output: 3e9b4020
414: 3eabf81b
(Unnamed Layer* 234) [Shuffle]_output: 3e010a14
416: 40abf81b
(Unnamed Layer* 237) [Shuffle]_output: 3c810a14
418: 3c84bf6f
(Unnamed Layer* 240) [Shuffle]_output: 3c810a14
420: 3d0bc6ee
(Unnamed Layer* 242) [Constant]_output: 3f6feebd
422: 40abf81b
423: 40abf81b
435: 40a08e85
436: 3dee115e
459: 3dee115e
460: 3dee115e
461: 3ba13c8f
463: 3c00d89e
464: 3c05cc6f
465: 409e984b
(Unnamed Layer* 254) [Shuffle]_output: 3c810a14
467: 3c80d89e
(Unnamed Layer* 256) [Constant]_output: 3e1533a7
469: 3e1e70a9
(Unnamed Layer* 259) [Shuffle]_output: 3e810a14
471: 409e984b
(Unnamed Layer* 262) [Shuffle]_output: 3c810a14
473: 3c85cc6f
(Unnamed Layer* 265) [Shuffle]_output: 3c810a14
475: 3d031799
(Unnamed Layer* 267) [Constant]_output: 403c03af
477: 409e984b
478: 409e984b
490: 40a08e85
output0: 40a08e85
