TRT-8201-EntropyCalibration2
images: 3bf80000
122: 3e08b1d5
123: 3c010a14
124: 3d9720d6
125: 3e89073a
126: 3c010a14
127: 3e10b30e
128: 3dd6d5c2
129: 3c0bc70b
130: 3ce96d00
131: 3cf27814
132: 3c03bffb
133: 3cff79a7
134: 3d92a253
135: 3c0274e5
136: 3d5efde5
137: 3d8e52c5
138: 3de4cc82
139: 3c010a14
140: 3d8e52c5
141: 3d8e52c5
142: 3d8a2cff
143: 3c01b350
144: 3d22a621
145: 3d5045c9
146: 3bffde10
147: 3cc0ad4e
148: 3ce05432
149: 3bc9d6a0
150: 3bff6d25
151: 3d1660df
152: 3c029046
153: 3d120920
154: 3d0672fd
155: 3bf205d1
156: 3c804c22
157: 3cb161f2
158: 3d15df94
159: 3bffb924
160: 3cb1fa88
161: 3d26329a
162: 3c013099
163: 3d00e251
164: 3d23d1c5
165: 3d2af225
166: 3bfe9ffb
167: 3d23d1c5
168: 3d23d1c5
169: 3d1d8ca4
170: 3c0cd59f
171: 3c9ad775
172: 3d540f7c
173: 3bfea0ca
174: 3c516283
175: 3cfb92ef
176: 3bf6194b
177: 3c1fcc25
178: 3d39e8b1
179: 3c018eac
180: 3d297315
181: 3d1af653
182: 3bf98969
183: 3c816992
184: 3cbf1fa1
185: 3d51a1d8
186: 3c04bddc
187: 3ca73301
188: 3d77bda8
189: 3c051996
190: 3ce79f94
191: 3d57fce1
192: 3d6472a6
193: 3c034857
194: 3cb33ac2
195: 3d7f18ae
196: 3c010596
197: 3d116aed
198: 3d46601b
199: 3d42d10d
200: 3c08b492
201: 3d46601b
202: 3d46601b
203: 3d8217e9
204: 3c04dbda
205: 3c9aa1e7
206: 3d729d8f
207: 3c00fada
208: 3cb49415
209: 3d424f73
210: 3c012a4f
211: 3c19ae70
212: 3da5843a
213: 3c0d2897
214: 3ce7fafd
215: 3db00973
216: 3c010c3a
217: 3d28df71
218: 3cfea8e3
219: 3d87d023
220: 3c025f54
221: 3cfea8e3
222: 3cfea8e3
223: 3d952863
224: 3c00fc65
225: 3ca46570
226: 3d4951ee
227: 3c007368
228: 3d668e89
229: 3d668e89
230: 3d668e89
231: 3d668e89
232: 3d668e89
233: 3d7e6032
234: 3c00d80f
235: 3c43ce21
236: 3d8e84c2
237: 3c00d149
238: 3d0301d1
243: 3c9aa1e7
244: 3c9aa1e7
245: 3d564c5b
246: 3bfe06db
247: 3c9abe92
248: 3d5c1017
249: 3c006eae
250: 3cd365b9
251: 3d5cbbaf
252: 3c013280
253: 3cb32737
254: 3d51f944
255: 3c00a757
256: 3cb32737
257: 3cb32737
258: 3d866948
259: 3c00ed6a
260: 3c99695b
261: 3d560297
262: 3c00c303
263: 3d00f74a
268: 3c9ad775
269: 3c9ad775
270: 3d2f9994
271: 3bf752f8
272: 3c73ccd6
273: 3d36eead
274: 3bf95c32
275: 3c9aa585
276: 3d9d126f
277: 3c01af45
278: 3d25cc07
279: 3d49ed60
280: 3c001470
281: 3d25cc07
282: 3d25cc07
283: 3e248f6f
284: 3c010a14
285: 3dd1fa3a
286: 3d780cbf
287: 3c0203bb
288: 3d00f74a
289: 3d00f74a
290: 3d4d4bc7
291: 3c00b890
292: 3ce8e20e
293: 3d5a24f4
294: 3c01b7e9
295: 3ca5b6b5
296: 3db32ac7
297: 3c00eacc
298: 3d004fd9
299: 3d5cd626
300: 3c006fd0
301: 3d004fd9
302: 3d004fd9
303: 3e259726
304: 3c010a14
305: 3d9bf789
306: 3d87403f
307: 3c03128b
308: 3d0301d1
309: 3d0301d1
310: 3d9196e8
311: 3c0410b5
312: 3cc02207
313: 3d926873
314: 3c010b8d
315: 3d01b95f
316: 3dc2c33c
317: 3c053200
318: 3d020f93
319: 3d8845d9
320: 3c00e5d7
321: 3d020f93
322: 3d020f93
323: 3df54f94
324: 3c010a14
325: 3d0a6167
326: 3e1b35e1
338: 3e1b35e1
339: 3e1b35e1
340: 3bc07813
341: 3bfa41e5
342: 3c001e6b
343: 40a0a46c
(Unnamed Layer* 204) [Shuffle]_output: 3c810a14
345: 3c7a41e5
(Unnamed Layer* 206) [Constant]_output: 3f1e465d
347: 3f20a46c
(Unnamed Layer* 209) [Shuffle]_output: 3d810a14
349: 40a0a46c
(Unnamed Layer* 212) [Shuffle]_output: 3c810a14
351: 3c801e6b
(Unnamed Layer* 215) [Shuffle]_output: 3c810a14
353: 3cfd9ae1
(Unnamed Layer* 217) [Constant]_output: 3e851265
355: 40a0a46c
356: 40a0a46c
363: 40a0ae7b
364: 3dfba18d
376: 3dfba18d
377: 3dfba18d
378: 3ba0f425
379: 3c023811
380: 3c00fe81
381: 40ac510d
(Unnamed Layer* 229) [Shuffle]_output: 3c810a14
383: 3c823811
(Unnamed Layer* 231) [Constant]_output: 3e9b4020
385: 3eac510d
(Unnamed Layer* 234) [Shuffle]_output: 3e010a14
387: 40ac510d
(Unnamed Layer* 237) [Shuffle]_output: 3c810a14
389: 3c80fe81
(Unnamed Layer* 240) [Shuffle]_output: 3c810a14
391: 3d0009d1
(Unnamed Layer* 242) [Constant]_output: 3f6feebd
393: 40ac510d
394: 40ac510d
401: 40a0ae7b
402: 3e054a4a
414: 3e054a4a
415: 3e054a4a
416: 3b80e5b9
417: 3bfeca83
418: 3c016ef0
419: 409e6503
(Unnamed Layer* 254) [Shuffle]_output: 3c810a14
421: 3c7eca83
(Unnamed Layer* 256) [Constant]_output: 3e1533a7
423: 3e1e8c97
(Unnamed Layer* 259) [Shuffle]_output: 3e810a14
425: 409e6503
(Unnamed Layer* 262) [Shuffle]_output: 3c810a14
427: 3c816ef0
(Unnamed Layer* 265) [Shuffle]_output: 3c810a14
429: 3cfeaa98
(Unnamed Layer* 267) [Constant]_output: 403c03af
431: 409e6503
432: 409e6503
439: 40a0ae7b
output0: 40a0ae7b
